
#ifdef __has_attribute
#define HAVE_ATTRIBUTE(x) __has_attribute(x)
#else
#define HAVE_ATTRIBUTE(x) 0
#endif
#if HAVE_ATTRIBUTE(aligned) || (defined(__GNUC__) && !defined(__clang__))
#define DATA_ALIGN_ATTRIBUTE __attribute__((aligned(4)))
#else
#define DATA_ALIGN_ATTRIBUTE
#endif

const unsigned char ormeggio_model_data[] DATA_ALIGN_ATTRIBUTE = {
	0x1c, 0x00, 0x00, 0x00, 0x54, 0x46, 0x4c, 0x33, 0x14, 0x00, 0x20, 0x00, 
	0x1c, 0x00, 0x18, 0x00, 0x14, 0x00, 0x10, 0x00, 0x0c, 0x00, 0x00, 0x00, 
	0x08, 0x00, 0x04, 0x00, 0x14, 0x00, 0x00, 0x00, 0x1c, 0x00, 0x00, 0x00, 
	0x98, 0x00, 0x00, 0x00, 0xf0, 0x00, 0x00, 0x00, 0x7c, 0x08, 0x00, 0x00, 
	0x8c, 0x08, 0x00, 0x00, 0x3c, 0x12, 0x00, 0x00, 0x03, 0x00, 0x00, 0x00, 
	0x01, 0x00, 0x00, 0x00, 0x10, 0x00, 0x00, 0x00, 0x00, 0x00, 0x0a, 0x00, 
	0x10, 0x00, 0x0c, 0x00, 0x08, 0x00, 0x04, 0x00, 0x0a, 0x00, 0x00, 0x00, 
	0x0c, 0x00, 0x00, 0x00, 0x1c, 0x00, 0x00, 0x00, 0x3c, 0x00, 0x00, 0x00, 
	0x0f, 0x00, 0x00, 0x00, 0x73, 0x65, 0x72, 0x76, 0x69, 0x6e, 0x67, 0x5f, 
	0x64, 0x65, 0x66, 0x61, 0x75, 0x6c, 0x74, 0x00, 0x01, 0x00, 0x00, 0x00, 
	0x04, 0x00, 0x00, 0x00, 0x90, 0xff, 0xff, 0xff, 0x12, 0x00, 0x00, 0x00, 
	0x04, 0x00, 0x00, 0x00, 0x08, 0x00, 0x00, 0x00, 0x6f, 0x75, 0x74, 0x70, 
	0x75, 0x74, 0x5f, 0x30, 0x00, 0x00, 0x00, 0x00, 0x01, 0x00, 0x00, 0x00, 
	0x04, 0x00, 0x00, 0x00, 0x2a, 0xf9, 0xff, 0xff, 0x04, 0x00, 0x00, 0x00, 
	0x0f, 0x00, 0x00, 0x00, 0x6b, 0x65, 0x72, 0x61, 0x73, 0x5f, 0x74, 0x65, 
	0x6e, 0x73, 0x6f, 0x72, 0x5f, 0x31, 0x32, 0x00, 0x02, 0x00, 0x00, 0x00, 
	0x34, 0x00, 0x00, 0x00, 0x04, 0x00, 0x00, 0x00, 0xdc, 0xff, 0xff, 0xff, 
	0x15, 0x00, 0x00, 0x00, 0x04, 0x00, 0x00, 0x00, 0x13, 0x00, 0x00, 0x00, 
	0x43, 0x4f, 0x4e, 0x56, 0x45, 0x52, 0x53, 0x49, 0x4f, 0x4e, 0x5f, 0x4d, 
	0x45, 0x54, 0x41, 0x44, 0x41, 0x54, 0x41, 0x00, 0x08, 0x00, 0x0c, 0x00, 
	0x08, 0x00, 0x04, 0x00, 0x08, 0x00, 0x00, 0x00, 0x14, 0x00, 0x00, 0x00, 
	0x04, 0x00, 0x00, 0x00, 0x13, 0x00, 0x00, 0x00, 0x6d, 0x69, 0x6e, 0x5f, 
	0x72, 0x75, 0x6e, 0x74, 0x69, 0x6d, 0x65, 0x5f, 0x76, 0x65, 0x72, 0x73, 
	0x69, 0x6f, 0x6e, 0x00, 0x16, 0x00, 0x00, 0x00, 0x88, 0x07, 0x00, 0x00, 
	0x80, 0x07, 0x00, 0x00, 0x58, 0x06, 0x00, 0x00, 0x28, 0x05, 0x00, 0x00, 
	0xa8, 0x04, 0x00, 0x00, 0x28, 0x04, 0x00, 0x00, 0x00, 0x03, 0x00, 0x00, 
	0xc8, 0x02, 0x00, 0x00, 0x9c, 0x02, 0x00, 0x00, 0x7c, 0x02, 0x00, 0x00, 
	0x50, 0x02, 0x00, 0x00, 0x18, 0x02, 0x00, 0x00, 0xec, 0x01, 0x00, 0x00, 
	0xc4, 0x00, 0x00, 0x00, 0xbc, 0x00, 0x00, 0x00, 0xb4, 0x00, 0x00, 0x00, 
	0xac, 0x00, 0x00, 0x00, 0xa4, 0x00, 0x00, 0x00, 0x9c, 0x00, 0x00, 0x00, 
	0x94, 0x00, 0x00, 0x00, 0x74, 0x00, 0x00, 0x00, 0x04, 0x00, 0x00, 0x00, 
	0xfe, 0xf9, 0xff, 0xff, 0x04, 0x00, 0x00, 0x00, 0x60, 0x00, 0x00, 0x00, 
	0x0c, 0x00, 0x00, 0x00, 0x08, 0x00, 0x0e, 0x00, 0x08, 0x00, 0x04, 0x00, 
	0x08, 0x00, 0x00, 0x00, 0x10, 0x00, 0x00, 0x00, 0x28, 0x00, 0x00, 0x00, 
	0x00, 0x00, 0x06, 0x00, 0x08, 0x00, 0x04, 0x00, 0x06, 0x00, 0x00, 0x00, 
	0x04, 0x00, 0x00, 0x00, 0x01, 0x00, 0x00, 0x00, 0xea, 0x03, 0x00, 0x00, 
	0x0c, 0x00, 0x18, 0x00, 0x14, 0x00, 0x10, 0x00, 0x0c, 0x00, 0x04, 0x00, 
	0x0c, 0x00, 0x00, 0x00, 0xe2, 0x36, 0xb8, 0x4f, 0xf7, 0x7b, 0xbb, 0x7d, 
	0x02, 0x00, 0x00, 0x00, 0x02, 0x00, 0x00, 0x00, 0x04, 0x00, 0x00, 0x00, 
	0x06, 0x00, 0x00, 0x00, 0x32, 0x2e, 0x31, 0x38, 0x2e, 0x30, 0x00, 0x00, 
	0x6a, 0xfa, 0xff, 0xff, 0x04, 0x00, 0x00, 0x00, 0x10, 0x00, 0x00, 0x00, 
	0x31, 0x2e, 0x35, 0x2e, 0x30, 0x00, 0x00, 0x00, 0x00, 0x00, 0x00, 0x00, 
	0x00, 0x00, 0x00, 0x00, 0xc8, 0xef, 0xff, 0xff, 0xcc, 0xef, 0xff, 0xff, 
	0xd0, 0xef, 0xff, 0xff, 0xd4, 0xef, 0xff, 0xff, 0xd8, 0xef, 0xff, 0xff, 
	0xdc, 0xef, 0xff, 0xff, 0x9e, 0xfa, 0xff, 0xff, 0x04, 0x00, 0x00, 0x00, 
	0x18, 0x01, 0x00, 0x00, 0xc5, 0x46, 0x4e, 0xbe, 0xe7, 0xec, 0x06, 0xbf, 
	0xe6, 0xda, 0x3d, 0xbd, 0xac, 0xbd, 0xfa, 0x3e, 0xbf, 0xfe, 0xc3, 0xbe, 
	0x8b, 0x5d, 0xe1, 0x3e, 0x82, 0x08, 0x9a, 0xbc, 0xaa, 0xe4, 0x14, 0x3e, 
	0x01, 0xbc, 0x84, 0x3e, 0xd5, 0xb1, 0x3c, 0xbf, 0x51, 0x45, 0x00, 0x3f, 
	0x5f, 0xfd, 0xfe, 0x3e, 0xd7, 0xd8, 0xaf, 0x3d, 0x9e, 0x75, 0x20, 0xbe, 
	0x54, 0xe9, 0x52, 0x3c, 0xf8, 0x64, 0xbb, 0xbe, 0x34, 0xe5, 0x6c, 0xbe, 
	0xc9, 0x2d, 0x26, 0xbf, 0x1f, 0x80, 0x23, 0xbf, 0x58, 0x61, 0xda, 0x3e, 
	0x3c, 0xba, 0xb3, 0x3e, 0x6e, 0x7c, 0xc9, 0x3e, 0x74, 0x32, 0x22, 0x3e, 
	0xc9, 0xc3, 0x17, 0x3f, 0xce, 0x42, 0x44, 0xbb, 0x45, 0x41, 0x4d, 0xbf, 
	0xdb, 0x4a, 0x0f, 0xbf, 0xed, 0xd9, 0xa3, 0x3e, 0x82, 0xe2, 0x28, 0xbe, 
	0x1d, 0xb0, 0x56, 0x3e, 0x05, 0xb5, 0x45, 0x3f, 0xba, 0xeb, 0x27, 0xbf, 
	0x1c, 0x7a, 0xa5, 0xbc, 0xba, 0xe3, 0xa2, 0x3e, 0x31, 0xc9, 0xfb, 0xbd, 
	0x78, 0x2c, 0xca, 0x3e, 0x27, 0xd5, 0xc1, 0xbe, 0x69, 0x6e, 0x34, 0xbe, 
	0x74, 0x20, 0xc0, 0xbe, 0xbe, 0xb0, 0x36, 0xbe, 0x4e, 0x83, 0xa2, 0x3e, 
	0x59, 0xb3, 0xd5, 0xbd, 0x5b, 0xe7, 0xf8, 0x3e, 0x5c, 0xfc, 0xe9, 0xbe, 
	0xbe, 0x23, 0xa5, 0x3d, 0x5b, 0x7e, 0xf3, 0x3d, 0x96, 0xe6, 0x0a, 0x3f, 
	0x53, 0x57, 0xd9, 0xbe, 0x57, 0x30, 0x05, 0xbf, 0x02, 0xfd, 0x1c, 0x3f, 
	0x81, 0x3d, 0x4e, 0x3e, 0xa8, 0xf1, 0x1c, 0x3f, 0x98, 0xce, 0xab, 0x3d, 
	0x28, 0xf9, 0x99, 0x3e, 0xd7, 0xda, 0x60, 0xbd, 0xed, 0x4b, 0xfb, 0x3d, 
	0xe4, 0xc0, 0xa6, 0x3e, 0x4e, 0xaf, 0xb7, 0x3e, 0xe5, 0x3f, 0xc6, 0xbe, 
	0x7f, 0x26, 0x48, 0x3e, 0x0a, 0xad, 0xf2, 0x3e, 0xa0, 0xed, 0x49, 0xbf, 
	0x78, 0x3d, 0xc4, 0xbd, 0x42, 0xeb, 0x26, 0xbe, 0xa1, 0xed, 0x58, 0x3d, 
	0x9d, 0x01, 0xd4, 0x3e, 0x18, 0x26, 0xc9, 0x3e, 0x6f, 0x5d, 0xec, 0x3e, 
	0xd7, 0x11, 0x40, 0x3e, 0x8b, 0x85, 0x41, 0xbd, 0xc2, 0xfb, 0xff, 0xff, 
	0x04, 0x00, 0x00, 0x00, 0x1c, 0x00, 0x00, 0x00, 0x2b, 0xb9, 0x7d, 0xbd, 
	0x14, 0x0d, 0x12, 0xbe, 0x82, 0x87, 0x9d, 0xbd, 0x8a, 0xe1, 0xf7, 0x3e, 
	0x03, 0x72, 0x6e, 0x3e, 0x04, 0x1c, 0x21, 0xbc, 0x87, 0x54, 0x1c, 0xbe, 
	0xea, 0xfb, 0xff, 0xff, 0x04, 0x00, 0x00, 0x00, 0x28, 0x00, 0x00, 0x00, 
	0x57, 0xe4, 0xbc, 0x3e, 0x14, 0x65, 0xd8, 0x3d, 0x94, 0x63, 0xc1, 0x3d, 
	0xdf, 0x51, 0x09, 0x3f, 0x4c, 0xd4, 0x7b, 0xbe, 0x6d, 0xeb, 0xb4, 0xbd, 
	0x2e, 0x24, 0xa5, 0x3e, 0xf0, 0x52, 0x83, 0xbe, 0x3c, 0xea, 0xa8, 0x3e, 
	0x4f, 0x31, 0xa4, 0xbd, 0x1e, 0xfc, 0xff, 0xff, 0x04, 0x00, 0x00, 0x00, 
	0x1c, 0x00, 0x00, 0x00, 0xca, 0xb4, 0x55, 0x3e, 0xfc, 0xd5, 0x86, 0x3e, 
	0x65, 0xb9, 0xcd, 0xbe, 0x00, 0x00, 0x00, 0x00, 0xba, 0xa8, 0xaa, 0x3e, 
	0xda, 0x01, 0x7a, 0x3e, 0x3d, 0xcd, 0xfd, 0x3d, 0x46, 0xfc, 0xff, 0xff, 
	0x04, 0x00, 0x00, 0x00, 0x10, 0x00, 0x00, 0x00, 0x49, 0x19, 0x7f, 0xbe, 
	0x7e, 0x28, 0x27, 0xbd, 0x26, 0x67, 0xd2, 0x3e, 0xb5, 0x06, 0x2c, 0x3e, 
	0x62, 0xfc, 0xff, 0xff, 0x04, 0x00, 0x00, 0x00, 0x1c, 0x00, 0x00, 0x00, 
	0x47, 0x12, 0xdc, 0x3d, 0xae, 0x4b, 0x98, 0x3c, 0x6f, 0x7b, 0x7f, 0x3e, 
	0xb8, 0x01, 0x22, 0x3e, 0x33, 0xb3, 0xc1, 0x3d, 0x97, 0xd1, 0x42, 0x3e, 
	0x9c, 0x2a, 0x00, 0x3d, 0x8a, 0xfc, 0xff, 0xff, 0x04, 0x00, 0x00, 0x00, 
	0x28, 0x00, 0x00, 0x00, 0x5e, 0x17, 0x7f, 0x3d, 0xca, 0x0d, 0xf0, 0x3c, 
	0x0d, 0xd1, 0xe7, 0x3d, 0xa2, 0xf1, 0xc8, 0x3e, 0xe7, 0x7c, 0x22, 0x3e, 
	0x0a, 0x54, 0x24, 0x3f, 0x65, 0x03, 0x7e, 0x3e, 0xbf, 0x6a, 0xc6, 0x3e, 
	0x65, 0x72, 0x09, 0x3e, 0xf3, 0x7c, 0x38, 0x3d, 0xbe, 0xfc, 0xff, 0xff, 
	0x04, 0x00, 0x00, 0x00, 0x18, 0x01, 0x00, 0x00, 0xae, 0xdf, 0xe4, 0xbe, 
	0x71, 0x48, 0x31, 0xbd, 0x12, 0x35, 0x58, 0x3d, 0x9e, 0x06, 0x42, 0xbe, 
	0xd2, 0xb2, 0x88, 0xbd, 0x0e, 0x96, 0x4c, 0x3e, 0xda, 0xd9, 0x3c, 0xbd, 
	0x5a, 0xb0, 0xb9, 0xbe, 0x02, 0x9b, 0x17, 0x3f, 0x4d, 0x21, 0x56, 0xbf, 
	0xa3, 0x2b, 0xf5, 0x3e, 0x80, 0x61, 0x81, 0xbc, 0xef, 0x9a, 0x80, 0x3e, 
	0xab, 0xd3, 0x8b, 0xbe, 0xf1, 0x3f, 0xa5, 0x3c, 0xd6, 0x4c, 0xa8, 0xbd, 
	0x6a, 0x05, 0xc1, 0x3e, 0xac, 0xb4, 0xd5, 0xbe, 0xe9, 0xff, 0x98, 0xbe, 
	0xc5, 0x95, 0xda, 0x3e, 0x96, 0x63, 0x47, 0xbf, 0x4b, 0x91, 0x5c, 0xbe, 
	0x2a, 0x1c, 0x2b, 0x3f, 0x8f, 0xae, 0x0d, 0x3d, 0x2a, 0x83, 0x13, 0xbe, 
	0x8f, 0xb5, 0x16, 0x3f, 0x31, 0x64, 0x5e, 0xbd, 0x17, 0x38, 0x64, 0xbe, 
	0x45, 0xca, 0x80, 0xbf, 0x5e, 0xf5, 0xfd, 0xbe, 0x35, 0x2e, 0x58, 0x3e, 
	0x86, 0x35, 0x8d, 0xbe, 0xd7, 0x61, 0xeb, 0x3e, 0x33, 0x27, 0x5a, 0x3f, 
	0xda, 0x81, 0xaf, 0x3d, 0xe7, 0x7c, 0x8b, 0xbe, 0xf7, 0x7f, 0x9c, 0xbe, 
	0xd7, 0x24, 0x0b, 0x3f, 0x7e, 0xa4, 0x5e, 0xbe, 0xef, 0x9b, 0x94, 0xbe, 
	0x38, 0x87, 0x06, 0xbe, 0x16, 0xfd, 0x80, 0x3e, 0xa6, 0xf0, 0x7c, 0x3e, 
	0xfd, 0xa0, 0xfe, 0xbd, 0x48, 0x39, 0xe5, 0xbd, 0xa0, 0x5c, 0x00, 0x3f, 
	0x21, 0x7d, 0x88, 0x3f, 0x18, 0xfd, 0xa6, 0x3d, 0xd1, 0xe3, 0xab, 0x3e, 
	0xb1, 0xb6, 0x15, 0xbe, 0xc3, 0x51, 0x8b, 0x3d, 0x6c, 0x90, 0x21, 0x3f, 
	0xdb, 0x92, 0xeb, 0x3e, 0x90, 0x00, 0x11, 0x3d, 0xdf, 0x36, 0x0c, 0x3d, 
	0x13, 0x31, 0x24, 0x3f, 0x0b, 0x5f, 0x68, 0xbe, 0xa9, 0x21, 0xf0, 0x3e, 
	0x21, 0xb6, 0xb8, 0xbe, 0x64, 0x82, 0x44, 0xbe, 0xc3, 0x01, 0x1e, 0xbf, 
	0x56, 0xe8, 0x3b, 0xbf, 0x0e, 0xf1, 0x06, 0x3f, 0x65, 0x59, 0x4c, 0x3e, 
	0x5d, 0x26, 0x60, 0x3f, 0xc4, 0x3e, 0xd8, 0x3e, 0xa5, 0x1a, 0x80, 0xbe, 
	0xc2, 0x9f, 0x1d, 0x3f, 0xb7, 0x1b, 0xd0, 0xbe, 0xe0, 0x53, 0x85, 0x3e, 
	0xe2, 0xfd, 0xff, 0xff, 0x04, 0x00, 0x00, 0x00, 0x70, 0x00, 0x00, 0x00, 
	0x16, 0xb5, 0xa0, 0x3e, 0x53, 0xd1, 0x06, 0xbf, 0xb2, 0x7e, 0xe0, 0x3e, 
	0x6e, 0x30, 0xa3, 0x3e, 0x2f, 0x70, 0xed, 0x3e, 0x9b, 0xb3, 0x06, 0x3f, 
	0x18, 0xd4, 0x80, 0xbe, 0x7c, 0xe6, 0x40, 0xbf, 0x26, 0xa0, 0xf0, 0x3e, 
	0x14, 0xb9, 0x89, 0x3f, 0xf7, 0xb6, 0x39, 0x3f, 0x6f, 0xdc, 0x6d, 0xbd, 
	0xe9, 0x14, 0x04, 0x3f, 0xfb, 0xd8, 0x67, 0x3f, 0x21, 0xb6, 0x50, 0x3e, 
	0x92, 0x8e, 0xfa, 0xbd, 0x37, 0x37, 0xcc, 0x3e, 0x8a, 0x79, 0x48, 0x3f, 
	0x0a, 0x6c, 0xbe, 0x3e, 0x88, 0x27, 0x22, 0xbf, 0x82, 0xdf, 0x22, 0x3f, 
	0xac, 0x04, 0x32, 0xbf, 0xf3, 0x21, 0x12, 0x3f, 0x1e, 0x1c, 0x0d, 0x3f, 
	0x0e, 0x14, 0xd0, 0xbe, 0x98, 0x25, 0x0d, 0x3f, 0x9f, 0x81, 0x98, 0xbe, 
	0xb9, 0xb7, 0x75, 0x3f, 0x5e, 0xfe, 0xff, 0xff, 0x04, 0x00, 0x00, 0x00, 
	0x70, 0x00, 0x00, 0x00, 0x78, 0x68, 0x27, 0xbe, 0xae, 0xed, 0x54, 0x3f, 
	0xe4, 0x0a, 0xc7, 0xbd, 0x9b, 0x63, 0x1c, 0xbd, 0xf1, 0x58, 0x76, 0xbf, 
	0xe1, 0xc3, 0x56, 0x3c, 0x51, 0x27, 0x36, 0x3e, 0xad, 0xde, 0x3c, 0x3f, 
	0xf3, 0x6a, 0x5c, 0xbe, 0x5e, 0x0a, 0xd5, 0x3e, 0xbf, 0x40, 0x33, 0x3f, 
	0x14, 0xb3, 0x26, 0x3f, 0x08, 0x64, 0x41, 0xbe, 0xa5, 0x3c, 0xa5, 0xbe, 
	0x00, 0x7a, 0x9a, 0xbc, 0x00, 0x94, 0x6f, 0xbb, 0x51, 0xcc, 0x88, 0xbe, 
	0x65, 0x7c, 0xd8, 0xbb, 0xdd, 0x58, 0x23, 0x3f, 0x9f, 0x12, 0x98, 0xbe, 
	0x96, 0xc7, 0x97, 0xbe, 0x16, 0x9f, 0x81, 0xbf, 0x9c, 0x22, 0x2c, 0x3f, 
	0x65, 0x40, 0xdb, 0xbe, 0x3a, 0x74, 0xc7, 0x3e, 0x66, 0xf6, 0x96, 0xbe, 
	0x70, 0xdd, 0x67, 0xbe, 0xa6, 0xf9, 0x04, 0x3f, 0xda, 0xfe, 0xff, 0xff, 
	0x04, 0x00, 0x00, 0x00, 0x18, 0x01, 0x00, 0x00, 0xdf, 0x4c, 0x16, 0x3f, 
	0x40, 0x6c, 0x71, 0xbe, 0x08, 0xbf, 0x4a, 0xbe, 0x40, 0x9b, 0xcc, 0x3c, 
	0x33, 0x43, 0xaa, 0xbe, 0xa7, 0xfd, 0x98, 0xbe, 0x49, 0xaf, 0xc7, 0x3e, 
	0x52, 0x96, 0x2f, 0x3d, 0x46, 0xcf, 0x18, 0xbf, 0x8a, 0x5e, 0x0c, 0x3f, 
	0x2e, 0x9d, 0xf5, 0xbe, 0x50, 0x33, 0xdd, 0xbe, 0xaa, 0xab, 0x0f, 0x3f, 
	0xd8, 0xbb, 0x18, 0xbe, 0xe7, 0x03, 0x80, 0xbe, 0xff, 0xa8, 0x88, 0x3e, 
	0xa8, 0x6c, 0x09, 0x3e, 0xf4, 0x51, 0x08, 0xbe, 0xb5, 0xc3, 0xfa, 0xbb, 
	0xec, 0x2b, 0x86, 0xbf, 0xcd, 0x97, 0x71, 0x3f, 0x7d, 0x9c, 0x13, 0x3e, 
	0xa1, 0x8d, 0xdb, 0xbd, 0xf2, 0xdb, 0x66, 0xbf, 0xec, 0xc4, 0x15, 0x3e, 
	0xf0, 0xd9, 0x80, 0x3d, 0x97, 0x29, 0x0f, 0x3f, 0x6a, 0xc7, 0xba, 0x3e, 
	0x9f, 0x1e, 0xe6, 0xbd, 0x68, 0x3a, 0xe9, 0xbd, 0x53, 0x58, 0x37, 0x3e, 
	0xa4, 0x11, 0xd3, 0x3e, 0x81, 0x72, 0xfb, 0xbc, 0x3c, 0x1a, 0x22, 0x3e, 
	0x43, 0x37, 0x3f, 0x3f, 0xfd, 0x53, 0xc8, 0x3e, 0x6f, 0x74, 0x57, 0x3f, 
	0x7c, 0xdf, 0x36, 0x3d, 0x0e, 0x1e, 0x49, 0xbe, 0x7b, 0x20, 0x22, 0xbf, 
	0x26, 0x4c, 0x8e, 0x3f, 0xbd, 0xde, 0xbd, 0x3e, 0x26, 0x3d, 0xa3, 0xbe, 
	0x25, 0x8a, 0x3a, 0xbf, 0x3b, 0x00, 0xe2, 0xbd, 0x46, 0x3d, 0x03, 0x3f, 
	0xd9, 0x28, 0x34, 0x3e, 0x81, 0x34, 0x1c, 0x3f, 0xe7, 0x14, 0x28, 0x3f, 
	0x6e, 0x4f, 0xe7, 0x3d, 0xdd, 0xa2, 0xf2, 0x3c, 0x23, 0x69, 0xda, 0x3e, 
	0xd0, 0x8d, 0x27, 0xbd, 0xc0, 0x03, 0xcf, 0x3e, 0xb6, 0xdd, 0xa3, 0x3e, 
	0x93, 0x5a, 0x39, 0xbf, 0xd9, 0x72, 0xb8, 0xbe, 0xb3, 0x20, 0x21, 0x3f, 
	0x18, 0x01, 0xc2, 0xbe, 0x80, 0x26, 0xbb, 0x3d, 0x58, 0x76, 0x6c, 0x3f, 
	0x63, 0x73, 0x57, 0xbe, 0x94, 0x98, 0xbb, 0xbd, 0xa2, 0xc0, 0x5c, 0xbe, 
	0xa2, 0xb0, 0x0d, 0xbf, 0x26, 0x66, 0x7d, 0xbd, 0x68, 0x11, 0xc4, 0x3e, 
	0x52, 0x4a, 0x8c, 0xbd, 0x32, 0xa5, 0x03, 0xbe, 0xdc, 0xfd, 0x95, 0x3d, 
	0x00, 0x00, 0x06, 0x00, 0x08, 0x00, 0x04, 0x00, 0x06, 0x00, 0x00, 0x00, 
	0x04, 0x00, 0x00, 0x00, 0x18, 0x01, 0x00, 0x00, 0xf8, 0x94, 0xde, 0x3d, 
	0x66, 0x9c, 0xcd, 0x3e, 0xf4, 0xc5, 0x7a, 0x3e, 0xc5, 0x57, 0xad, 0xbd, 
	0x58, 0x23, 0x13, 0x3f, 0x6c, 0x65, 0xbb, 0xbe, 0xcf, 0x73, 0x9f, 0x3e, 
	0x84, 0xd1, 0xed, 0x3c, 0x9f, 0x80, 0x4e, 0xbf, 0x89, 0x05, 0xf2, 0xbe, 
	0xd4, 0x15, 0x00, 0xbf, 0x9f, 0x3c, 0x48, 0xbd, 0x4d, 0x9a, 0x04, 0x3e, 
	0x3c, 0x70, 0xb3, 0x3f, 0xd0, 0x98, 0x48, 0xbf, 0x5f, 0x7f, 0xc1, 0xbd, 
	0x9d, 0x05, 0xd9, 0x3e, 0xa3, 0x04, 0xbd, 0x3e, 0xf2, 0x87, 0xad, 0x3c, 
	0x71, 0x61, 0x90, 0xbe, 0x2c, 0x3b, 0x6f, 0xbe, 0x91, 0xa3, 0x63, 0xbf, 
	0x58, 0xbf, 0xee, 0x3e, 0xc2, 0x8a, 0x57, 0xbf, 0xe8, 0xf8, 0x18, 0x3e, 
	0x55, 0x62, 0xcd, 0xbd, 0x9c, 0x98, 0x3d, 0xbf, 0x6e, 0x0e, 0x65, 0x3f, 
	0xfb, 0x09, 0x59, 0x3e, 0x2e, 0x98, 0xce, 0x3e, 0xfb, 0x98, 0xf8, 0x3e, 
	0x1b, 0xb3, 0xb9, 0xbe, 0x49, 0x5d, 0x3a, 0x3f, 0x06, 0x07, 0x3c, 0xbf, 
	0xf3, 0x11, 0x0b, 0xbf, 0xdf, 0xe3, 0x0f, 0xbf, 0x26, 0x18, 0x0c, 0xbf, 
	0x00, 0x31, 0x0c, 0x3d, 0xd3, 0x44, 0xb3, 0x3e, 0xd8, 0x89, 0x8e, 0x3d, 
	0xe3, 0x8b, 0x0f, 0xbf, 0xcf, 0x59, 0xca, 0xbc, 0x4f, 0x51, 0x3f, 0x3f, 
	0xbc, 0xb3, 0x25, 0x3f, 0x2c, 0x89, 0x02, 0xbf, 0x42, 0x2b, 0xb5, 0x3e, 
	0xf7, 0x9f, 0x93, 0x3e, 0x58, 0x1f, 0x9c, 0xbe, 0xde, 0x8c, 0x19, 0xbf, 
	0x0f, 0xf6, 0xb1, 0x3e, 0x99, 0x56, 0x5c, 0x3f, 0x16, 0x64, 0x37, 0xbf, 
	0xf5, 0xdf, 0x1b, 0xbf, 0x5c, 0x4d, 0x9f, 0x3e, 0x1b, 0x86, 0xce, 0x3c, 
	0xa3, 0x5c, 0x3f, 0x3f, 0x89, 0x3e, 0xb9, 0xbe, 0x34, 0x31, 0x81, 0xbe, 
	0x5f, 0x8a, 0x9b, 0xbf, 0xe1, 0x4e, 0xb3, 0x3e, 0xc7, 0xcc, 0x3a, 0x3e, 
	0xf8, 0xc0, 0x26, 0x3e, 0x14, 0x00, 0x41, 0xbe, 0xbb, 0xbb, 0x00, 0x3f, 
	0x43, 0xaf, 0x13, 0xbf, 0x17, 0x4f, 0x7d, 0xbe, 0x22, 0xfb, 0x09, 0xbc, 
	0x3f, 0x56, 0x4f, 0x3e, 0xa5, 0x54, 0x3d, 0x3e, 0x6d, 0xb1, 0x0a, 0x3f, 
	0x6c, 0xf6, 0xff, 0xff, 0x70, 0xf6, 0xff, 0xff, 0x0f, 0x00, 0x00, 0x00, 
	0x4d, 0x4c, 0x49, 0x52, 0x20, 0x43, 0x6f, 0x6e, 0x76, 0x65, 0x72, 0x74, 
	0x65, 0x64, 0x2e, 0x00, 0x01, 0x00, 0x00, 0x00, 0x14, 0x00, 0x00, 0x00, 
	0x00, 0x00, 0x0e, 0x00, 0x18, 0x00, 0x14, 0x00, 0x10, 0x00, 0x0c, 0x00, 
	0x08, 0x00, 0x04, 0x00, 0x0e, 0x00, 0x00, 0x00, 0x14, 0x00, 0x00, 0x00, 
	0x1c, 0x00, 0x00, 0x00, 0x80, 0x01, 0x00, 0x00, 0x84, 0x01, 0x00, 0x00, 
	0x88, 0x01, 0x00, 0x00, 0x04, 0x00, 0x00, 0x00, 0x6d, 0x61, 0x69, 0x6e, 
	0x00, 0x00, 0x00, 0x00, 0x06, 0x00, 0x00, 0x00, 0x28, 0x01, 0x00, 0x00, 
	0xe0, 0x00, 0x00, 0x00, 0xa8, 0x00, 0x00, 0x00, 0x70, 0x00, 0x00, 0x00, 
	0x38, 0x00, 0x00, 0x00, 0x04, 0x00, 0x00, 0x00, 0xfe, 0xfe, 0xff, 0xff, 
	0x10, 0x00, 0x00, 0x00, 0x00, 0x00, 0x00, 0x08, 0x0c, 0x00, 0x00, 0x00, 
	0x10, 0x00, 0x00, 0x00, 0xf4, 0xf6, 0xff, 0xff, 0x01, 0x00, 0x00, 0x00, 
	0x12, 0x00, 0x00, 0x00, 0x03, 0x00, 0x00, 0x00, 0x11, 0x00, 0x00, 0x00, 
	0x01, 0x00, 0x00, 0x00, 0x0b, 0x00, 0x00, 0x00, 0x2e, 0xff, 0xff, 0xff, 
	0x10, 0x00, 0x00, 0x00, 0x00, 0x00, 0x00, 0x08, 0x10, 0x00, 0x00, 0x00, 
	0x14, 0x00, 0x00, 0x00, 0x1e, 0xff, 0xff, 0xff, 0x00, 0x00, 0x00, 0x01, 
	0x01, 0x00, 0x00, 0x00, 0x11, 0x00, 0x00, 0x00, 0x03, 0x00, 0x00, 0x00, 
	0x10, 0x00, 0x00, 0x00, 0x02, 0x00, 0x00, 0x00, 0x0a, 0x00, 0x00, 0x00, 
	0x62, 0xff, 0xff, 0xff, 0x10, 0x00, 0x00, 0x00, 0x00, 0x00, 0x00, 0x08, 
	0x10, 0x00, 0x00, 0x00, 0x14, 0x00, 0x00, 0x00, 0x52, 0xff, 0xff, 0xff, 
	0x00, 0x00, 0x00, 0x01, 0x01, 0x00, 0x00, 0x00, 0x10, 0x00, 0x00, 0x00, 
	0x03, 0x00, 0x00, 0x00, 0x0f, 0x00, 0x00, 0x00, 0x03, 0x00, 0x00, 0x00, 
	0x09, 0x00, 0x00, 0x00, 0x96, 0xff, 0xff, 0xff, 0x10, 0x00, 0x00, 0x00, 
	0x00, 0x00, 0x00, 0x08, 0x10, 0x00, 0x00, 0x00, 0x14, 0x00, 0x00, 0x00, 
	0x86, 0xff, 0xff, 0xff, 0x00, 0x00, 0x00, 0x01, 0x01, 0x00, 0x00, 0x00, 
	0x0f, 0x00, 0x00, 0x00, 0x03, 0x00, 0x00, 0x00, 0x0e, 0x00, 0x00, 0x00, 
	0x04, 0x00, 0x00, 0x00, 0x08, 0x00, 0x00, 0x00, 0xca, 0xff, 0xff, 0xff, 
	0x10, 0x00, 0x00, 0x00, 0x00, 0x00, 0x00, 0x08, 0x10, 0x00, 0x00, 0x00, 
	0x14, 0x00, 0x00, 0x00, 0xba, 0xff, 0xff, 0xff, 0x00, 0x00, 0x00, 0x01, 
	0x01, 0x00, 0x00, 0x00, 0x0e, 0x00, 0x00, 0x00, 0x03, 0x00, 0x00, 0x00, 
	0x0d, 0x00, 0x00, 0x00, 0x05, 0x00, 0x00, 0x00, 0x07, 0x00, 0x00, 0x00, 
	0x00, 0x00, 0x0e, 0x00, 0x16, 0x00, 0x00, 0x00, 0x10, 0x00, 0x0c, 0x00, 
	0x0b, 0x00, 0x04, 0x00, 0x0e, 0x00, 0x00, 0x00, 0x18, 0x00, 0x00, 0x00, 
	0x00, 0x00, 0x00, 0x08, 0x18, 0x00, 0x00, 0x00, 0x1c, 0x00, 0x00, 0x00, 
	0x00, 0x00, 0x06, 0x00, 0x08, 0x00, 0x07, 0x00, 0x06, 0x00, 0x00, 0x00, 
	0x00, 0x00, 0x00, 0x01, 0x01, 0x00, 0x00, 0x00, 0x0d, 0x00, 0x00, 0x00, 
	0x03, 0x00, 0x00, 0x00, 0x00, 0x00, 0x00, 0x00, 0x0c, 0x00, 0x00, 0x00, 
	0x06, 0x00, 0x00, 0x00, 0x01, 0x00, 0x00, 0x00, 0x12, 0x00, 0x00, 0x00, 
	0x01, 0x00, 0x00, 0x00, 0x00, 0x00, 0x00, 0x00, 0x13, 0x00, 0x00, 0x00, 
	0x98, 0x07, 0x00, 0x00, 0x40, 0x07, 0x00, 0x00, 0xe8, 0x06, 0x00, 0x00, 
	0xa8, 0x06, 0x00, 0x00, 0x68, 0x06, 0x00, 0x00, 0x28, 0x06, 0x00, 0x00, 
	0xc8, 0x05, 0x00, 0x00, 0x68, 0x05, 0x00, 0x00, 0x08, 0x05, 0x00, 0x00, 
	0xa8, 0x04, 0x00, 0x00, 0x48, 0x04, 0x00, 0x00, 0xe8, 0x03, 0x00, 0x00, 
	0x94, 0x03, 0x00, 0x00, 0xf0, 0x02, 0x00, 0x00, 0x4c, 0x02, 0x00, 0x00, 
	0xa8, 0x01, 0x00, 0x00, 0x04, 0x01, 0x00, 0x00, 0x60, 0x00, 0x00, 0x00, 
	0x04, 0x00, 0x00, 0x00, 0xca, 0xf8, 0xff, 0xff, 0x00, 0x00, 0x00, 0x01, 
	0x14, 0x00, 0x00, 0x00, 0x1c, 0x00, 0x00, 0x00, 0x1c, 0x00, 0x00, 0x00, 
	0x13, 0x00, 0x00, 0x00, 0x34, 0x00, 0x00, 0x00, 0x02, 0x00, 0x00, 0x00, 
	0xff, 0xff, 0xff, 0xff, 0x07, 0x00, 0x00, 0x00, 0xb4, 0xf8, 0xff, 0xff, 
	0x1b, 0x00, 0x00, 0x00, 0x53, 0x74, 0x61, 0x74, 0x65, 0x66, 0x75, 0x6c, 
	0x50, 0x61, 0x72, 0x74, 0x69, 0x74, 0x69, 0x6f, 0x6e, 0x65, 0x64, 0x43, 
	0x61, 0x6c, 0x6c, 0x5f, 0x31, 0x3a, 0x30, 0x00, 0x02, 0x00, 0x00, 0x00, 
	0x01, 0x00, 0x00, 0x00, 0x07, 0x00, 0x00, 0x00, 0x22, 0xf9, 0xff, 0xff, 
	0x00, 0x00, 0x00, 0x01, 0x14, 0x00, 0x00, 0x00, 0x1c, 0x00, 0x00, 0x00, 
	0x1c, 0x00, 0x00, 0x00, 0x12, 0x00, 0x00, 0x00, 0x7c, 0x00, 0x00, 0x00, 
	0x02, 0x00, 0x00, 0x00, 0xff, 0xff, 0xff, 0xff, 0x0a, 0x00, 0x00, 0x00, 
	0x0c, 0xf9, 0xff, 0xff, 0x61, 0x00, 0x00, 0x00, 0x66, 0x75, 0x6e, 0x63, 
	0x74, 0x69, 0x6f, 0x6e, 0x61, 0x6c, 0x5f, 0x32, 0x5f, 0x31, 0x2f, 0x64, 
	0x65, 0x6e, 0x73, 0x65, 0x5f, 0x31, 0x34, 0x5f, 0x31, 0x2f, 0x4d, 0x61, 
	0x74, 0x4d, 0x75, 0x6c, 0x3b, 0x66, 0x75, 0x6e, 0x63, 0x74, 0x69, 0x6f, 
	0x6e, 0x61, 0x6c, 0x5f, 0x32, 0x5f, 0x31, 0x2f, 0x64, 0x65, 0x6e, 0x73, 
	0x65, 0x5f, 0x31, 0x34, 0x5f, 0x31, 0x2f, 0x52, 0x65, 0x6c, 0x75, 0x3b, 
	0x66, 0x75, 0x6e, 0x63, 0x74, 0x69, 0x6f, 0x6e, 0x61, 0x6c, 0x5f, 0x32, 
	0x5f, 0x31, 0x2f, 0x64, 0x65, 0x6e, 0x73, 0x65, 0x5f, 0x31, 0x34, 0x5f, 
	0x31, 0x2f, 0x42, 0x69, 0x61, 0x73, 0x41, 0x64, 0x64, 0x00, 0x00, 0x00, 
	0x02, 0x00, 0x00, 0x00, 0x01, 0x00, 0x00, 0x00, 0x0a, 0x00, 0x00, 0x00, 
	0xc2, 0xf9, 0xff, 0xff, 0x00, 0x00, 0x00, 0x01, 0x14, 0x00, 0x00, 0x00, 
	0x1c, 0x00, 0x00, 0x00, 0x1c, 0x00, 0x00, 0x00, 0x11, 0x00, 0x00, 0x00, 
	0x7c, 0x00, 0x00, 0x00, 0x02, 0x00, 0x00, 0x00, 0xff, 0xff, 0xff, 0xff, 
	0x07, 0x00, 0x00, 0x00, 0xac, 0xf9, 0xff, 0xff, 0x61, 0x00, 0x00, 0x00, 
	0x66, 0x75, 0x6e, 0x63, 0x74, 0x69, 0x6f, 0x6e, 0x61, 0x6c, 0x5f, 0x32, 
	0x5f, 0x31, 0x2f, 0x64, 0x65, 0x6e, 0x73, 0x65, 0x5f, 0x31, 0x33, 0x5f, 
	0x31, 0x2f, 0x4d, 0x61, 0x74, 0x4d, 0x75, 0x6c, 0x3b, 0x66, 0x75, 0x6e, 
	0x63, 0x74, 0x69, 0x6f, 0x6e, 0x61, 0x6c, 0x5f, 0x32, 0x5f, 0x31, 0x2f, 
	0x64, 0x65, 0x6e, 0x73, 0x65, 0x5f, 0x31, 0x33, 0x5f, 0x31, 0x2f, 0x52, 
	0x65, 0x6c, 0x75, 0x3b, 0x66, 0x75, 0x6e, 0x63, 0x74, 0x69, 0x6f, 0x6e, 
	0x61, 0x6c, 0x5f, 0x32, 0x5f, 0x31, 0x2f, 0x64, 0x65, 0x6e, 0x73, 0x65, 
	0x5f, 0x31, 0x33, 0x5f, 0x31, 0x2f, 0x42, 0x69, 0x61, 0x73, 0x41, 0x64, 
	0x64, 0x00, 0x00, 0x00, 0x02, 0x00, 0x00, 0x00, 0x01, 0x00, 0x00, 0x00, 
	0x07, 0x00, 0x00, 0x00, 0x62, 0xfa, 0xff, 0xff, 0x00, 0x00, 0x00, 0x01, 
	0x14, 0x00, 0x00, 0x00, 0x1c, 0x00, 0x00, 0x00, 0x1c, 0x00, 0x00, 0x00, 
	0x10, 0x00, 0x00, 0x00, 0x7c, 0x00, 0x00, 0x00, 0x02, 0x00, 0x00, 0x00, 
	0xff, 0xff, 0xff, 0xff, 0x04, 0x00, 0x00, 0x00, 0x4c, 0xfa, 0xff, 0xff, 
	0x61, 0x00, 0x00, 0x00, 0x66, 0x75, 0x6e, 0x63, 0x74, 0x69, 0x6f, 0x6e, 
	0x61, 0x6c, 0x5f, 0x32, 0x5f, 0x31, 0x2f, 0x64, 0x65, 0x6e, 0x73, 0x65, 
	0x5f, 0x31, 0x32, 0x5f, 0x31, 0x2f, 0x4d, 0x61, 0x74, 0x4d, 0x75, 0x6c, 
	0x3b, 0x66, 0x75, 0x6e, 0x63, 0x74, 0x69, 0x6f, 0x6e, 0x61, 0x6c, 0x5f, 
	0x32, 0x5f, 0x31, 0x2f, 0x64, 0x65, 0x6e, 0x73, 0x65, 0x5f, 0x31, 0x32, 
	0x5f, 0x31, 0x2f, 0x52, 0x65, 0x6c, 0x75, 0x3b, 0x66, 0x75, 0x6e, 0x63, 
	0x74, 0x69, 0x6f, 0x6e, 0x61, 0x6c, 0x5f, 0x32, 0x5f, 0x31, 0x2f, 0x64, 
	0x65, 0x6e, 0x73, 0x65, 0x5f, 0x31, 0x32, 0x5f, 0x31, 0x2f, 0x42, 0x69, 
	0x61, 0x73, 0x41, 0x64, 0x64, 0x00, 0x00, 0x00, 0x02, 0x00, 0x00, 0x00, 
	0x01, 0x00, 0x00, 0x00, 0x04, 0x00, 0x00, 0x00, 0x02, 0xfb, 0xff, 0xff, 
	0x00, 0x00, 0x00, 0x01, 0x14, 0x00, 0x00, 0x00, 0x1c, 0x00, 0x00, 0x00, 
	0x1c, 0x00, 0x00, 0x00, 0x0f, 0x00, 0x00, 0x00, 0x7c, 0x00, 0x00, 0x00, 
	0x02, 0x00, 0x00, 0x00, 0xff, 0xff, 0xff, 0xff, 0x07, 0x00, 0x00, 0x00, 
	0xec, 0xfa, 0xff, 0xff, 0x61, 0x00, 0x00, 0x00, 0x66, 0x75, 0x6e, 0x63, 
	0x74, 0x69, 0x6f, 0x6e, 0x61, 0x6c, 0x5f, 0x32, 0x5f, 0x31, 0x2f, 0x64, 
	0x65, 0x6e, 0x73, 0x65, 0x5f, 0x31, 0x31, 0x5f, 0x31, 0x2f, 0x4d, 0x61, 
	0x74, 0x4d, 0x75, 0x6c, 0x3b, 0x66, 0x75, 0x6e, 0x63, 0x74, 0x69, 0x6f, 
	0x6e, 0x61, 0x6c, 0x5f, 0x32, 0x5f, 0x31, 0x2f, 0x64, 0x65, 0x6e, 0x73, 
	0x65, 0x5f, 0x31, 0x31, 0x5f, 0x31, 0x2f, 0x52, 0x65, 0x6c, 0x75, 0x3b, 
	0x66, 0x75, 0x6e, 0x63, 0x74, 0x69, 0x6f, 0x6e, 0x61, 0x6c, 0x5f, 0x32, 
	0x5f, 0x31, 0x2f, 0x64, 0x65, 0x6e, 0x73, 0x65, 0x5f, 0x31, 0x31, 0x5f, 
	0x31, 0x2f, 0x42, 0x69, 0x61, 0x73, 0x41, 0x64, 0x64, 0x00, 0x00, 0x00, 
	0x02, 0x00, 0x00, 0x00, 0x01, 0x00, 0x00, 0x00, 0x07, 0x00, 0x00, 0x00, 
	0xa2, 0xfb, 0xff, 0xff, 0x00, 0x00, 0x00, 0x01, 0x14, 0x00, 0x00, 0x00, 
	0x1c, 0x00, 0x00, 0x00, 0x1c, 0x00, 0x00, 0x00, 0x0e, 0x00, 0x00, 0x00, 
	0x7c, 0x00, 0x00, 0x00, 0x02, 0x00, 0x00, 0x00, 0xff, 0xff, 0xff, 0xff, 
	0x0a, 0x00, 0x00, 0x00, 0x8c, 0xfb, 0xff, 0xff, 0x61, 0x00, 0x00, 0x00, 
	0x66, 0x75, 0x6e, 0x63, 0x74, 0x69, 0x6f, 0x6e, 0x61, 0x6c, 0x5f, 0x32, 
	0x5f, 0x31, 0x2f, 0x64, 0x65, 0x6e, 0x73, 0x65, 0x5f, 0x31, 0x30, 0x5f, 
	0x31, 0x2f, 0x4d, 0x61, 0x74, 0x4d, 0x75, 0x6c, 0x3b, 0x66, 0x75, 0x6e, 
	0x63, 0x74, 0x69, 0x6f, 0x6e, 0x61, 0x6c, 0x5f, 0x32, 0x5f, 0x31, 0x2f, 
	0x64, 0x65, 0x6e, 0x73, 0x65, 0x5f, 0x31, 0x30, 0x5f, 0x31, 0x2f, 0x52, 
	0x65, 0x6c, 0x75, 0x3b, 0x66, 0x75, 0x6e, 0x63, 0x74, 0x69, 0x6f, 0x6e, 
	0x61, 0x6c, 0x5f, 0x32, 0x5f, 0x31, 0x2f, 0x64, 0x65, 0x6e, 0x73, 0x65, 
	0x5f, 0x31, 0x30, 0x5f, 0x31, 0x2f, 0x42, 0x69, 0x61, 0x73, 0x41, 0x64, 
	0x64, 0x00, 0x00, 0x00, 0x02, 0x00, 0x00, 0x00, 0x01, 0x00, 0x00, 0x00, 
	0x0a, 0x00, 0x00, 0x00, 0x96, 0xfc, 0xff, 0xff, 0x00, 0x00, 0x00, 0x01, 
	0x10, 0x00, 0x00, 0x00, 0x10, 0x00, 0x00, 0x00, 0x0d, 0x00, 0x00, 0x00, 
	0x30, 0x00, 0x00, 0x00, 0x1c, 0xfc, 0xff, 0xff, 0x20, 0x00, 0x00, 0x00, 
	0x66, 0x75, 0x6e, 0x63, 0x74, 0x69, 0x6f, 0x6e, 0x61, 0x6c, 0x5f, 0x32, 
	0x5f, 0x31, 0x2f, 0x64, 0x65, 0x6e, 0x73, 0x65, 0x5f, 0x31, 0x30, 0x5f, 
	0x31, 0x2f, 0x4d, 0x61, 0x74, 0x4d, 0x75, 0x6c, 0x00, 0x00, 0x00, 0x00, 
	0x02, 0x00, 0x00, 0x00, 0x0a, 0x00, 0x00, 0x00, 0x07, 0x00, 0x00, 0x00, 
	0xe6, 0xfc, 0xff, 0xff, 0x00, 0x00, 0x00, 0x01, 0x10, 0x00, 0x00, 0x00, 
	0x10, 0x00, 0x00, 0x00, 0x0c, 0x00, 0x00, 0x00, 0x40, 0x00, 0x00, 0x00, 
	0x6c, 0xfc, 0xff, 0xff, 0x30, 0x00, 0x00, 0x00, 0x66, 0x75, 0x6e, 0x63, 
	0x74, 0x69, 0x6f, 0x6e, 0x61, 0x6c, 0x5f, 0x32, 0x5f, 0x31, 0x2f, 0x64, 
	0x65, 0x6e, 0x73, 0x65, 0x5f, 0x31, 0x35, 0x5f, 0x31, 0x2f, 0x42, 0x69, 
	0x61, 0x73, 0x41, 0x64, 0x64, 0x2f, 0x52, 0x65, 0x61, 0x64, 0x56, 0x61, 
	0x72, 0x69, 0x61, 0x62, 0x6c, 0x65, 0x4f, 0x70, 0x00, 0x00, 0x00, 0x00, 
	0x01, 0x00, 0x00, 0x00, 0x07, 0x00, 0x00, 0x00, 0x42, 0xfd, 0xff, 0xff, 
	0x00, 0x00, 0x00, 0x01, 0x10, 0x00, 0x00, 0x00, 0x10, 0x00, 0x00, 0x00, 
	0x0b, 0x00, 0x00, 0x00, 0x40, 0x00, 0x00, 0x00, 0xc8, 0xfc, 0xff, 0xff, 
	0x30, 0x00, 0x00, 0x00, 0x66, 0x75, 0x6e, 0x63, 0x74, 0x69, 0x6f, 0x6e, 
	0x61, 0x6c, 0x5f, 0x32, 0x5f, 0x31, 0x2f, 0x64, 0x65, 0x6e, 0x73, 0x65, 
	0x5f, 0x31, 0x34, 0x5f, 0x31, 0x2f, 0x42, 0x69, 0x61, 0x73, 0x41, 0x64, 
	0x64, 0x2f, 0x52, 0x65, 0x61, 0x64, 0x56, 0x61, 0x72, 0x69, 0x61, 0x62, 
	0x6c, 0x65, 0x4f, 0x70, 0x00, 0x00, 0x00, 0x00, 0x01, 0x00, 0x00, 0x00, 
	0x0a, 0x00, 0x00, 0x00, 0x9e, 0xfd, 0xff, 0xff, 0x00, 0x00, 0x00, 0x01, 
	0x10, 0x00, 0x00, 0x00, 0x10, 0x00, 0x00, 0x00, 0x0a, 0x00, 0x00, 0x00, 
	0x40, 0x00, 0x00, 0x00, 0x24, 0xfd, 0xff, 0xff, 0x30, 0x00, 0x00, 0x00, 
	0x66, 0x75, 0x6e, 0x63, 0x74, 0x69, 0x6f, 0x6e, 0x61, 0x6c, 0x5f, 0x32, 
	0x5f, 0x31, 0x2f, 0x64, 0x65, 0x6e, 0x73, 0x65, 0x5f, 0x31, 0x33, 0x5f, 
	0x31, 0x2f, 0x42, 0x69, 0x61, 0x73, 0x41, 0x64, 0x64, 0x2f, 0x52, 0x65, 
	0x61, 0x64, 0x56, 0x61, 0x72, 0x69, 0x61, 0x62, 0x6c, 0x65, 0x4f, 0x70, 
	0x00, 0x00, 0x00, 0x00, 0x01, 0x00, 0x00, 0x00, 0x07, 0x00, 0x00, 0x00, 
	0xfa, 0xfd, 0xff, 0xff, 0x00, 0x00, 0x00, 0x01, 0x10, 0x00, 0x00, 0x00, 
	0x10, 0x00, 0x00, 0x00, 0x09, 0x00, 0x00, 0x00, 0x40, 0x00, 0x00, 0x00, 
	0x80, 0xfd, 0xff, 0xff, 0x30, 0x00, 0x00, 0x00, 0x66, 0x75, 0x6e, 0x63, 
	0x74, 0x69, 0x6f, 0x6e, 0x61, 0x6c, 0x5f, 0x32, 0x5f, 0x31, 0x2f, 0x64, 
	0x65, 0x6e, 0x73, 0x65, 0x5f, 0x31, 0x32, 0x5f, 0x31, 0x2f, 0x42, 0x69, 
	0x61, 0x73, 0x41, 0x64, 0x64, 0x2f, 0x52, 0x65, 0x61, 0x64, 0x56, 0x61, 
	0x72, 0x69, 0x61, 0x62, 0x6c, 0x65, 0x4f, 0x70, 0x00, 0x00, 0x00, 0x00, 
	0x01, 0x00, 0x00, 0x00, 0x04, 0x00, 0x00, 0x00, 0x56, 0xfe, 0xff, 0xff, 
	0x00, 0x00, 0x00, 0x01, 0x10, 0x00, 0x00, 0x00, 0x10, 0x00, 0x00, 0x00, 
	0x08, 0x00, 0x00, 0x00, 0x40, 0x00, 0x00, 0x00, 0xdc, 0xfd, 0xff, 0xff, 
	0x30, 0x00, 0x00, 0x00, 0x66, 0x75, 0x6e, 0x63, 0x74, 0x69, 0x6f, 0x6e, 
	0x61, 0x6c, 0x5f, 0x32, 0x5f, 0x31, 0x2f, 0x64, 0x65, 0x6e, 0x73, 0x65, 
	0x5f, 0x31, 0x31, 0x5f, 0x31, 0x2f, 0x42, 0x69, 0x61, 0x73, 0x41, 0x64, 
	0x64, 0x2f, 0x52, 0x65, 0x61, 0x64, 0x56, 0x61, 0x72, 0x69, 0x61, 0x62, 
	0x6c, 0x65, 0x4f, 0x70, 0x00, 0x00, 0x00, 0x00, 0x01, 0x00, 0x00, 0x00, 
	0x07, 0x00, 0x00, 0x00, 0xb2, 0xfe, 0xff, 0xff, 0x00, 0x00, 0x00, 0x01, 
	0x10, 0x00, 0x00, 0x00, 0x10, 0x00, 0x00, 0x00, 0x07, 0x00, 0x00, 0x00, 
	0x40, 0x00, 0x00, 0x00, 0x38, 0xfe, 0xff, 0xff, 0x30, 0x00, 0x00, 0x00, 
	0x66, 0x75, 0x6e, 0x63, 0x74, 0x69, 0x6f, 0x6e, 0x61, 0x6c, 0x5f, 0x32, 
	0x5f, 0x31, 0x2f, 0x64, 0x65, 0x6e, 0x73, 0x65, 0x5f, 0x31, 0x30, 0x5f, 
	0x31, 0x2f, 0x42, 0x69, 0x61, 0x73, 0x41, 0x64, 0x64, 0x2f, 0x52, 0x65, 
	0x61, 0x64, 0x56, 0x61, 0x72, 0x69, 0x61, 0x62, 0x6c, 0x65, 0x4f, 0x70, 
	0x00, 0x00, 0x00, 0x00, 0x01, 0x00, 0x00, 0x00, 0x0a, 0x00, 0x00, 0x00, 
	0x0e, 0xff, 0xff, 0xff, 0x00, 0x00, 0x00, 0x01, 0x10, 0x00, 0x00, 0x00, 
	0x10, 0x00, 0x00, 0x00, 0x06, 0x00, 0x00, 0x00, 0x1c, 0x00, 0x00, 0x00, 
	0x94, 0xfe, 0xff, 0xff, 0x0f, 0x00, 0x00, 0x00, 0x61, 0x72, 0x69, 0x74, 
	0x68, 0x2e, 0x63, 0x6f, 0x6e, 0x73, 0x74, 0x61, 0x6e, 0x74, 0x34, 0x00, 
	0x02, 0x00, 0x00, 0x00, 0x07, 0x00, 0x00, 0x00, 0x0a, 0x00, 0x00, 0x00, 
	0x4a, 0xff, 0xff, 0xff, 0x00, 0x00, 0x00, 0x01, 0x10, 0x00, 0x00, 0x00, 
	0x10, 0x00, 0x00, 0x00, 0x05, 0x00, 0x00, 0x00, 0x1c, 0x00, 0x00, 0x00, 
	0xd0, 0xfe, 0xff, 0xff, 0x0f, 0x00, 0x00, 0x00, 0x61, 0x72, 0x69, 0x74, 
	0x68, 0x2e, 0x63, 0x6f, 0x6e, 0x73, 0x74, 0x61, 0x6e, 0x74, 0x33, 0x00, 
	0x02, 0x00, 0x00, 0x00, 0x04, 0x00, 0x00, 0x00, 0x07, 0x00, 0x00, 0x00, 
	0x86, 0xff, 0xff, 0xff, 0x00, 0x00, 0x00, 0x01, 0x10, 0x00, 0x00, 0x00, 
	0x10, 0x00, 0x00, 0x00, 0x04, 0x00, 0x00, 0x00, 0x1c, 0x00, 0x00, 0x00, 
	0x0c, 0xff, 0xff, 0xff, 0x0f, 0x00, 0x00, 0x00, 0x61, 0x72, 0x69, 0x74, 
	0x68, 0x2e, 0x63, 0x6f, 0x6e, 0x73, 0x74, 0x61, 0x6e, 0x74, 0x32, 0x00, 
	0x02, 0x00, 0x00, 0x00, 0x07, 0x00, 0x00, 0x00, 0x04, 0x00, 0x00, 0x00, 
	0xc2, 0xff, 0xff, 0xff, 0x00, 0x00, 0x00, 0x01, 0x10, 0x00, 0x00, 0x00, 
	0x10, 0x00, 0x00, 0x00, 0x03, 0x00, 0x00, 0x00, 0x1c, 0x00, 0x00, 0x00, 
	0x48, 0xff, 0xff, 0xff, 0x0f, 0x00, 0x00, 0x00, 0x61, 0x72, 0x69, 0x74, 
	0x68, 0x2e, 0x63, 0x6f, 0x6e, 0x73, 0x74, 0x61, 0x6e, 0x74, 0x31, 0x00, 
	0x02, 0x00, 0x00, 0x00, 0x0a, 0x00, 0x00, 0x00, 0x07, 0x00, 0x00, 0x00, 
	0x00, 0x00, 0x16, 0x00, 0x18, 0x00, 0x14, 0x00, 0x00, 0x00, 0x10, 0x00, 
	0x0c, 0x00, 0x08, 0x00, 0x00, 0x00, 0x00, 0x00, 0x00, 0x00, 0x07, 0x00, 
	0x16, 0x00, 0x00, 0x00, 0x00, 0x00, 0x00, 0x01, 0x10, 0x00, 0x00, 0x00, 
	0x10, 0x00, 0x00, 0x00, 0x02, 0x00, 0x00, 0x00, 0x1c, 0x00, 0x00, 0x00, 
	0x9c, 0xff, 0xff, 0xff, 0x0e, 0x00, 0x00, 0x00, 0x61, 0x72, 0x69, 0x74, 
	0x68, 0x2e, 0x63, 0x6f, 0x6e, 0x73, 0x74, 0x61, 0x6e, 0x74, 0x00, 0x00, 
	0x02, 0x00, 0x00, 0x00, 0x07, 0x00, 0x00, 0x00, 0x0a, 0x00, 0x00, 0x00, 
	0x00, 0x00, 0x16, 0x00, 0x1c, 0x00, 0x18, 0x00, 0x00, 0x00, 0x14, 0x00, 
	0x10, 0x00, 0x0c, 0x00, 0x00, 0x00, 0x00, 0x00, 0x08, 0x00, 0x07, 0x00, 
	0x16, 0x00, 0x00, 0x00, 0x00, 0x00, 0x00, 0x01, 0x14, 0x00, 0x00, 0x00, 
	0x20, 0x00, 0x00, 0x00, 0x20, 0x00, 0x00, 0x00, 0x01, 0x00, 0x00, 0x00, 
	0x40, 0x00, 0x00, 0x00, 0x02, 0x00, 0x00, 0x00, 0xff, 0xff, 0xff, 0xff, 
	0x07, 0x00, 0x00, 0x00, 0x04, 0x00, 0x04, 0x00, 0x04, 0x00, 0x00, 0x00, 
	0x21, 0x00, 0x00, 0x00, 0x73, 0x65, 0x72, 0x76, 0x69, 0x6e, 0x67, 0x5f, 
	0x64, 0x65, 0x66, 0x61, 0x75, 0x6c, 0x74, 0x5f, 0x6b, 0x65, 0x72, 0x61, 
	0x73, 0x5f, 0x74, 0x65, 0x6e, 0x73, 0x6f, 0x72, 0x5f, 0x31, 0x32, 0x3a, 
	0x30, 0x00, 0x00, 0x00, 0x02, 0x00, 0x00, 0x00, 0x01, 0x00, 0x00, 0x00, 
	0x07, 0x00, 0x00, 0x00, 0x01, 0x00, 0x00, 0x00, 0x10, 0x00, 0x00, 0x00, 
	0x0c, 0x00, 0x0c, 0x00, 0x0b, 0x00, 0x00, 0x00, 0x00, 0x00, 0x04, 0x00, 
	0x0c, 0x00, 0x00, 0x00, 0x09, 0x00, 0x00, 0x00, 0x00, 0x00, 0x00, 0x09
};
const int ormeggio_model_len = 4752;